{
  "version": "1.0",
  "truncation": null,
  "padding": null,
  "added_tokens": [
    {
      "id": 0,
      "content": "<|endoftext|>",
      "single_word": false,
      "lstrip": false,
      "rstrip": false,
      "normalized": false,
      "special": true
    }
  ],
  "normalizer": null,
  "pre_tokenizer": {
    "type": "ByteLevel",
    "add_prefix_space": false,
    "trim_offsets": true,
    "use_regex": true
  },
  "post_processor": null,
  "decoder": null,
  "model": {
    "type": "BPE",
    "dropout": null,
    "unk_token": null,
    "continuing_subword_prefix": null,
    "end_of_word_suffix": null,
    "fuse_unk": false,
    "byte_fallback": false,
    "ignore_merges": false,
    "vocab": {
      "<|endoftext|>": 0,
      "!": 1,
      "\"": 2,
      "#": 3,
      "$": 4,
      "%": 5,
      "&": 6,
      "'": 7,
      "(": 8,
      ")": 9,
      "*": 10,
      "+": 11,
      ",": 12,
      "-": 13,
      ".": 14,
      "/": 15,
      "0": 16,
      "1": 17,
      "2": 18,
      "3": 19,
      "4": 20,
      "5": 21,
      "6": 22,
      "7": 23,
      "8": 24,
      "9": 25,
      ":": 26,
      ";": 27,
      "<": 28,
      "=": 29,
      ">": 30,
      "?": 31,
      "@": 32,
      "A": 33,
      "B": 34,
      "C": 35,
      "D": 36,
      "E": 37,
      "F": 38,
      "G": 39,
      "H": 40,
      "I": 41,
      "J": 42,
      "K": 43,
      "L": 44,
      "M": 45,
      "N": 46,
      "O": 47,
      "P": 48,
      "Q": 49,
      "R": 50,
      "S": 51,
      "T": 52,
      "U": 53,
      "V": 54,
      "W": 55,
      "X": 56,
      "Y": 57,
      "Z": 58,
      "[": 59,
      "\\": 60,
      "]": 61,
      "^": 62,
      "_": 63,
      "`": 64,
      "a": 65,
      "b": 66,
      "c": 67,
      "d": 68,
      "e": 69,
      "f": 70,
      "g": 71,
      "h": 72,
      "i": 73,
      "j": 74,
      "k": 75,
      "l": 76,
      "m": 77,
      "n": 78,
      "o": 79,
      "p": 80,
      "q": 81,
      "r": 82,
      "s": 83,
      "t": 84,
      "u": 85,
      "v": 86,
      "w": 87,
      "x": 88,
      "y": 89,
      "z": 90,
      "{": 91,
      "|": 92,
      "}": 93,
      "~": 94,
      "¡": 95,
      "¢": 96,
      "£": 97,
      "¤": 98,
      "¥": 99,
      "¦": 100,
      "§": 101,
      "¨": 102,
      "©": 103,
      "ª": 104,
      "«": 105,
      "¬": 106,
      "®": 107,
      "¯": 108,
      "°": 109,
      "±": 110,
      "²": 111,
      "³": 112,
      "´": 113,
      "µ": 114,
      "¶": 115,
      "·": 116,
      "¸": 117,
      "¹": 118,
      "º": 119,
      "»": 120,
      "¼": 121,
      "½": 122,
      "¾": 123,
      "¿": 124,
      "À": 125,
      "Á": 126,
      "Â": 127,
      "Ã": 128,
      "Ä": 129,
      "Å": 130,
      "Æ": 131,
      "Ç": 132,
      "È": 133,
      "É": 134,
      "Ê": 135,
      "Ë": 136,
      "Ì": 137,
      "Í": 138,
      "Î": 139,
      "Ï": 140,
      "Ð": 141,
      "Ñ": 142,
      "Ò": 143,
      "Ó": 144,
      "Ô": 145,
      "Õ": 146,
      "Ö": 147,
      "×": 148,
      "Ø": 149,
      "Ù": 150,
      "Ú": 151,
      "Û": 152,
      "Ü": 153,
      "Ý": 154,
      "Þ": 155,
      "ß": 156,
      "à": 157,
      "á": 158,
      "â": 159,
      "ã": 160,
      "ä": 161,
      "å": 162,
      "æ": 163,
      "ç": 164,
      "è": 165,
      "é": 166,
      "ê": 167,
      "ë": 168,
      "ì": 169,
      "í": 170,
      "î": 171,
      "ï": 172,
      "ð": 173,
      "ñ": 174,
      "ò": 175,
      "ó": 176,
      "ô": 177,
      "õ": 178,
      "ö": 179,
      "÷": 180,
      "ø": 181,
      "ù": 182,
      "ú": 183,
      "û": 184,
      "ü": 185,
      "ý": 186,
      "þ": 187,
      "ÿ": 188,
      "Ā": 189,
      "ā": 190,
      "Ă": 191,
      "ă": 192,
      "Ą": 193,
      "ą": 194,
      "Ć": 195,
      "ć": 196,
      "Ĉ": 197,
      "ĉ": 198,
      "Ċ": 199,
      "ċ": 200,
      "Č": 201,
      "č": 202,
      "Ď": 203,
      "ď": 204,
      "Đ": 205,
      "đ": 206,
      "Ē": 207,
      "ē": 208,
      "Ĕ": 209,
      "ĕ": 210,
      "Ė": 211,
      "ė": 212,
      "Ę": 213,
      "ę": 214,
      "Ě": 215,
      "ě": 216,
      "Ĝ": 217,
      "ĝ": 218,
      "Ğ": 219,
      "ğ": 220,
      "Ġ": 221,
      "ġ": 222,
      "Ģ": 223,
      "ģ": 224,
      "Ĥ": 225,
      "ĥ": 226,
      "Ħ": 227,
      "ħ": 228,
      "Ĩ": 229,
      "ĩ": 230,
      "Ī": 231,
      "ī": 232,
      "Ĭ": 233,
      "ĭ": 234,
      "Į": 235,
      "į": 236,
      "İ": 237,
      "ı": 238,
      "Ĳ": 239,
      "ĳ": 240,
      "Ĵ": 241,
      "ĵ": 242,
      "Ķ": 243,
      "ķ": 244,
      "ĸ": 245,
      "Ĺ": 246,
      "ĺ": 247,
      "Ļ": 248,
      "ļ": 249,
      "Ľ": 250,
      "ľ": 251,
      "Ŀ": 252,
      "ŀ": 253,
      "Ł": 254,
      "ł": 255,
      "Ń": 256,
      "he": 257,
      "Ġt": 258,
      "Ġa": 259,
      "Ġs": 260,
      "nd": 261,
      "Ġw": 262,
      "Ġthe": 263,
      "ed": 264,
      "Ġb": 265,
      "Ġto": 266,
      "Ġand": 267,
      "Ġh": 268,
      "Ġf": 269,
      "in": 270,
      "Ġwa": 271,
      "ĠT": 272,
      "it": 273,
      "re": 274,
      "ou": 275,
      "Ġl": 276,
      "Ġd": 277,
      "Ġc": 278,
      "Ġp": 279,
      "ay": 280,
      "Ġwas": 281,
      "er": 282,
      "Ġm": 283,
      "om": 284,
      "Ġhe": 285,
      "ĠThe": 286,
      "is": 287,
      "Ġn": 288,
      "on": 289,
      "ar": 290,
      "im": 291,
      "Ġsa": 292,
      "ll": 293,
      "id": 294,
      "Ġha": 295,
      "Ġg": 296,
      "ĠS": 297,
      "at": 298,
      "ing": 299,
      "ot": 300,
      "en": 301,
      "an": 302,
      "le": 303,
      "or": 304,
      "end": 305,
      "ir": 306,
      "of": 307,
      "ĠH": 308,
      "am": 309,
      "et": 310,
      "Ġit": 311,
      "Ġth": 312,
      "ig": 313,
      "ĠThey": 314,
      "il": 315,
      "Ġin": 316,
      "ĠHe": 317,
      "Ġpl": 318,
      "Ġ\"": 319,
      "ow": 320,
      "ver": 321,
      "ri": 322,
      "Ġu": 323,
      "ut": 324,
      "Ġday": 325,
      "Ġsaid": 326,
      "ith": 327,
      "pp": 328,
      "Ġplay": 329,
      "On": 330,
      "Ġbe": 331,
      "Ġwith": 332,
      "Ġy": 333,
      "Ġher": 334,
      "Ġr": 335,
      "ked": 336,
      "oo": 337,
      "ex": 338,
      "ce": 339,
      "Ġhis": 340,
      "ĠShe": 341,
      "ĠI": 342,
      "ld": 343,
      "Ġst": 344,
      "ĠTim": 345,
      "ke": 346,
      "nt": 347,
      "ck": 348,
      "Ġbig": 349,
      "very": 350,
      "Ġyou": 351,
      "ve": 352,
      "st": 353,
      "Ġhapp": 354,
      "Ġon": 355,
      "un": 356,
      "all": 357,
      "ily": 358,
      "ext": 359,
      "riend": 360,
      "Ġfriend": 361,
      "ĠL": 362,
      "oft": 363,
      "Ġup": 364,
      "Ġthey": 365,
      "Ġwant": 366,
      "Ġwe": 367,
      "Ġhad": 368,
      "Ġnot": 369,
      "her": 370,
      "Ġli": 371,
      "itt": 372,
      "Ġdo": 373,
      "<|": 374,
      "|>": 375,
      "endoft": 376,
      "endoftext": 377,
      "Ġof": 378,
      "ĠB": 379,
      "ad": 380,
      "es": 381,
      "Ġe": 382,
      "Ġhappy": 383,
      "ĠM": 384,
      "ent": 385,
      "Ġvery": 386,
      "Ġthat": 387,
      "One": 388,
      "Ġsaw": 389,
      "Ġmom": 390,
      "ould": 391,
      "'s": 392,
      "se": 393,
      "Ġfor": 394,
      "ittle": 395,
      "Ġlittle": 396,
      "Ġshe": 397,
      "Ġsh": 398,
      "ime": 399,
      "Ġk": 400,
      "Ġtime": 401,
      "Ġnam": 402,
      "ch": 403,
      "Ġso": 404,
      "Ġthere": 405,
      ".\"": 406,
      "ound": 407,
      "Ġbo": 408,
      "Ġnamed": 409,
      "ĠLily": 410,
      "ird": 411,
      "Ġsm": 412,
      "Ġwanted": 413,
      "Ġbird": 414,
      "ĠTom": 415,
      "Ġne": 416,
      "ved": 417,
      "Ġwere": 418,
      "Ġbut": 419,
      "The": 420,
      "Ġfriends": 421,
      "!\"": 422,
      "out": 423,
      "ht": 424,
      "el": 425,
      "ake": 426,
      "al": 427,
      "Ġan": 428,
      "Ġtoo": 429,
      "ide": 430,
      "Ġhel": 431,
      "Once": 432,
      "Ġwh": 433,
      "Ġhelp": 434,
      "ug": 435,
      "Ġwent": 436,
      "ome": 437,
      "Ġall": 438,
      "ĠIt": 439,
      "ĠA": 440,
      "Ġloo": 441,
      "Ġis": 442,
      "Ġupon": 443,
      "Ġlo": 444,
      "ue": 445,
      "ter": 446,
      "ry": 447,
      "ore": 448,
      "ind": 449,
      "get": 450,
      "Ġfun": 451,
      "Ġtoy": 452,
      "ill": 453,
      "Ġo": 454,
      "ack": 455,
      "gether": 456,
      "Ġat": 457,
      "Ġj": 458,
      "Ġas": 459,
      "Ġdid": 460,
      "ame": 461,
      "Ġre": 462,
      "Ġtogether": 463,
      "ur": 464,
      "Ġcat": 465,
      "ra": 466,
      "Ġdog": 467,
      "Ġse": 468,
      "ly": 469,
      "Ġtre": 470,
      "ood": 471,
      "Ġgir": 472,
      "Ġcan": 473,
      "ic": 474,
      "Ġball": 475,
      "my": 476,
      "Ġgirl": 477,
      "Ġcould": 478,
      "ard": 479,
      "ted": 480,
      "Ġro": 481,
      "Ġhim": 482,
      "Ġtheir": 483,
      "ec": 484,
      "ark": 485,
      "way": 486,
      "Ġkn": 487,
      "Ġplayed": 488,
      "?\"": 489,
      "hed": 490,
      "Ġfr": 491,
      "ain": 492,
      "hen": 493,
      "Ġle": 494,
      "Ġout": 495,
      "um": 496,
      "'t": 497,
      "Ġgo": 498,
      "ax": 499,
      "Ġthem": 500,
      "Ġare": 501,
      "Ġboy": 502,
      "Ġsad": 503,
      "ul": 504,
      "oug": 505,
      "Ġhave": 506,
      "Ġtree": 507,
      "Ġcl": 508,
      "Ġloved": 509,
      "other": 510,
      "Ġback": 511,
      "Ġlooked": 512,
      "Ġsp": 513,
      "Ġfound": 514,
      "own": 515,
      "one": 516,
      "ĠMax": 517,
      "Ġme": 518,
      "Ġsc": 519,
      "Ġman": 520,
      "are": 521,
      "Ġstar": 522,
      "ĠSue": 523,
      "hing": 524,
      "side": 525,
      "Ġpark": 526,
      "ong": 527,
      "op": 528,
      "ful": 529,
      "Ġbec": 530,
      "Ġlike": 531,
      "Ġwould": 532,
      "Ġliked": 533,
      "elt": 534,
      "round": 535,
      "ĠOne": 536,
      "Ġfelt": 537,
      "ight": 538,
      "Ġfa": 539,
      "ĠBen": 540,
      "Ġla": 541,
      "ĠW": 542,
      "ell": 543,
      "Ġmake": 544,
      "ĠBut": 545,
      "You": 546,
      "Ġasked": 547,
      "Ġnew": 548,
      "ice": 549,
      "iled": 550,
      "ss": 551,
      "ared": 552,
      "ag": 553,
      "ĠSam": 554,
      "ought": 555,
      "Ġsee": 556,
      "omet": 557,
      "Ġal": 558,
      "Ġstarted": 559,
      "Ġag": 560,
      "Ġcame": 561,
      "ĠĊ": 562,
      "Ġno": 563,
      "Ġsmiled": 564,
      "Ġcar": 565,
      "Ġother": 566,
      "ried": 567,
      "Ġsomet": 568,
      "Ġgood": 569,
      "Ġsay": 570,
      "Ġbr": 571,
      "Ġsmall": 572,
      "ade": 573,
      "pot": 574,
      "ob": 575,
      "ings": 576,
      "Ġwor": 577,
      "Ġaway": 578,
      "ab": 579,
      "ouse": 580,
      "Ġfind": 581,
      "us": 582,
      "Ġfrom": 583,
      "Ġput": 584,
      "Ġex": 585,
      "ty": 586,
      "Ġthought": 587,
      "Ġmade": 588,
      "Ġwhat": 589,
      "ened": 590,
      "Ġplaying": 591,
      "ie": 592,
      "Ġhome": 593,
      "king": 594,
      "Ġwal": 595,
      "ach": 596,
      "Ġsomething": 597,
      "ia": 598,
      "ile": 599,
      "Ġevery": 600,
      "Ġran": 601,
      "ĠSpot": 602,
      "Ġagain": 603,
      "ĠF": 604,
      "ave": 605,
      "uc": 606,
      "arn": 607,
      "Ġbox": 608,
      "Ġdown": 609,
      "dd": 610,
      "Ġtoys": 611,
      "ook": 612,
      "ĠJ": 613,
      "Ġpr": 614,
      "Ġco": 615,
      "Ġtook": 616,
      "Ġsw": 617,
      "Ġsome": 618,
      "if": 619,
      "Ġlaug": 620,
      "oud": 621,
      "ew": 622,
      "ust": 623,
      "Ġsun": 624,
      "Ġaround": 625,
      "ny": 626,
      "Ġscared": 627,
      "Ġlived": 628,
      "Ġlearn": 629,
      "Ġwill": 630,
      "Ġmy": 631,
      "Ġfl": 632,
      "ure": 633,
      "Ġyour": 634,
      "ick": 635,
      "ret": 636,
      "ep": 637,
      "Ġhouse": 638,
      "Ġwhen": 639,
      "ĠYou": 640,
      "Ġthings": 641,
      "Ġbl": 642,
      ",\"": 643,
      "ank": 644,
      "uck": 645,
      "Ġthen": 646,
      "pped": 647,
      "ĠMia": 648,
      "ist": 649,
      "Th": 650,
      "Ġbot": 651,
      "Ġab": 652,
      "ish": 653,
      "Ġget": 654,
      "Ġwho": 655,
      "Ġknow": 656,
      "ucy": 657,
      "Ġfe": 658,
      "as": 659,
      "Ġtried": 660,
      "Ġgot": 661,
      "Ġknew": 662,
      "ited": 663,
      "Ġlot": 664,
      "uch": 665,
      "Ġsays": 666,
      "ap": 667,
      "ally": 668,
      "Ġch": 669,
      "Ġint": 670,
      "ive": 671,
      "Ġred": 672,
      "Tim": 673,
      "nder": 674,
      "ump": 675,
      "Lily": 676,
      "Ġpret": 677,
      "ous": 678,
      "Ġabout": 679,
      "Ġcare": 680,
      "Ġdec": 681,
      "fter": 682,
      "Ġop": 683,
      "fe": 684,
      "ĠD": 685,
      "Ġlook": 686,
      "Ġmany": 687,
      "use": 688,
      "Ġun": 689,
      "Ġmore": 690,
      "ise": 691,
      "ĠSo": 692,
      "ways": 693,
      "ĠE": 694,
      "nn": 695,
      "ĠMom": 696,
      "Ġexc": 697,
      "Ġalways": 698,
      "Ġpo": 699,
      "Ġpic": 700,
      "âĢ": 701,
      "Ġbest": 702,
      "qu": 703,
      "Ġany": 704,
      "Ġshow": 705,
      "Ġboth": 706,
      "ĠLucy": 707,
      "Ġhug": 708,
      "ite": 709,
      "Ġroom": 710,
      "ace": 711,
      "ers": 712,
      "ause": 713,
      "Ġinto": 714,
      "Ġwater": 715,
      "Ġbecame": 716,
      "Ġoutside": 717,
      "Ġlearned": 718,
      "Ġlaughed": 719,
      "udd": 720,
      "Ġdad": 721,
      "ided": 722,
      "ant": 723,
      "Ġv": 724,
      "Ġbecause": 725,
      "Ġone": 726,
      "Ġgre": 727,
      "Ġpe": 728,
      "Ġdecided": 729,
      "ĠAnd": 730,
      "pr": 731,
      "Ġexcited": 732,
      "Yes": 733,
      "Ġho": 734,
      "Ġnice": 735,
      "nna": 736,
      "Ġke": 737,
      "Ġeat": 738,
      "Ġsor": 739,
      "Ġthis": 740,
      "ara": 741,
      "Ġjump": 742,
      "Ġlong": 743,
      "Ġfeel": 744,
      "They": 745,
      "ĠBob": 746,
      "Tom": 747,
      "Ġmo": 748,
      "Ġtold": 749,
      "Ġrun": 750,
      "ull": 751,
      "Ġsur": 752,
      "ink": 753,
      "Ġrock": 754,
      "Ġinside": 755,
      "Ġpretty": 756,
      "Ġsl": 757,
      "Ġsk": 758,
      "lew": 759,
      "iny": 760,
      "Ġtake": 761,
      "Ġam": 762,
      "Ġgave": 763,
      "Ġsurpr": 764,
      "Ġeach": 765,
      "Ġfast": 766,
      "Ġtow": 767,
      "our": 768,
      "ess": 769,
      "ro": 770,
      "ven": 771,
      "ged": 772,
      "Ġsorry": 773,
      "Ġor": 774,
      "Ġneed": 775,
      "Ġmuch": 776,
      "Ġthan": 777,
      "Ġhow": 778,
      "urt": 779,
      "ised": 780,
      "Ġstr": 781,
      "able": 782,
      "Ġunder": 783,
      "Wh": 784,
      "og": 785,
      "ge": 786,
      "Ġkind": 787,
      "and": 788,
      "Ġgra": 789,
      "ĠAmy": 790,
      "imal": 791,
      "ving": 792,
      "Ġanimal": 793,
      "Ġta": 794,
      "But": 795,
      "Ġfood": 796,
      "Can": 797,
      "etter": 798,
      "Ġwalked": 799,
      "ĠWe": 800,
      "Ġtr": 801,
      "Ġwat": 802,
      "Ġhand": 803,
      "Ġold": 804,
      "ĠHis": 805,
      "Ġlist": 806,
      "Ġhig": 807,
      "ff": 808,
      "Ġjust": 809,
      "Ġclo": 810,
      "Ġflow": 811,
      "Ġen": 812,
      "rom": 813,
      "Ġcle": 814,
      "ched": 815,
      "Ġdidn": 816,
      "urn": 817,
      "Ġide": 818,
      "eci": 819,
      "Mom": 820,
      "ase": 821,
      "Ġtry": 822,
      "Ġidea": 823,
      "Ġdan": 824,
      "ion": 825,
      "here": 826,
      "Ġsky": 827,
      "Ġits": 828,
      "Ġspeci": 829,
      "Ġspecial": 830,
      "Ġnear": 831,
      "Ġflew": 832,
      "Ġus": 833,
      "ĠAnna": 834,
      "Ġtw": 835,
      "Ġhappened": 836,
      "pl": 837,
      "gry": 838,
      "Ġfo": 839,
      "Ġfi": 840,
      "ine": 841,
      "Ġsn": 842,
      "ĠTh": 843,
      "Ġif": 844,
      "Thank": 845,
      "Ġcake": 846,
      "ber": 847,
      "Ġfish": 848,
      "Ġanimals": 849,
      "Ġstor": 850,
      "Ġover": 851,
      "Ġbug": 852,
      "lf": 853,
      "Ġheard": 854,
      "ate": 855,
      "Ġcareful": 856,
      "Ġcom": 857,
      "rm": 858,
      "udden": 859,
      "Ġbetter": 860,
      "Ġlots": 861,
      "Ġby": 862,
      "Ġlet": 863,
      "Ġhard": 864,
      "Ġwind": 865,
      "Ġnever": 866,
      "Ġhurt": 867,
      "Ġbear": 868,
      "Ġshare": 869,
      "ople": 870,
      "ĠEvery": 871,
      "Ġdre": 872,
      "uddenly": 873,
      "more": 874,
      "Ġanymore": 875,
      "Ġeven": 876,
      "Ġte": 877,
      "ort": 878,
      "Ġtal": 879,
      "pec": 880,
      "Ġfly": 881,
      "ĠSara": 882,
      "Ġsafe": 883,
      "Ġlove": 884,
      "ady": 885,
      "Ġbu": 886,
      "Ġend": 887,
      "Ġdon": 888,
      "ĠK": 889,
      "Ġfore": 890,
      "Ġgive": 891,
      "Ġpeople": 892,
      "Ġafter": 893,
      "Ġclean": 894,
      "uff": 895,
      "Ġproud": 896,
      "Ġopened": 897,
      "'m": 898,
      "bed": 899,
      "Ġfam": 900,
      "Ġgr": 901,
      "Ġhigh": 902,
      "Ġbad": 903,
      "Ġdoor": 904,
      "Ġsurprised": 905,
      "ĠThen": 906,
      "ak": 907,
      "Ġturn": 908,
      "itty": 909,
      "As": 910,
      "Ġgl": 911,
      "age": 912,
      "ĠFrom": 913,
      "ummy": 914,
      "ough": 915,
      "Ġground": 916,
      "Ġclim": 917,
      "ĠHer": 918,
      "Ġthanked": 919,
      "Ġim": 920,
      "ĠWhen": 921,
      "iz": 922,
      "Ġblue": 923,
      "Ġbook": 924,
      "Ġcall": 925,
      "kay": 926,
      "Ġgard": 927,
      "Ġgarden": 928,
      "Ġfar": 929,
      "ild": 930,
      "Ġma": 931,
      "Ġever": 932,
      "Ġway": 933,
      "Ġche": 934,
      "Ġhugged": 935,
      "pected": 936,
      "Ġshiny": 937,
      "Ġcol": 938,
      "Ġpicked": 939,
      "Let": 940,
      "Ġsmile": 941,
      "Ġloud": 942,
      "Ġmag": 943,
      "Ġcu": 944,
      "Ġoff": 945,
      "Ġcome": 946,
      "ĠIn": 947,
      "Ġshould": 948,
      "expected": 949,
      "Ġunexpected": 950,
      "Ġnext": 951,
      "Ġstick": 952,
      "Ġplace": 953,
      "Ġwalk": 954,
      "ĠN": 955,
      "Ġfamily": 956,
      "em": 957,
      "hes": 958,
      "Ġqu": 959,
      "Ġcolor": 960,
      "by": 961,
      "ĠP": 962,
      "Ġstill": 963,
      "ture": 964,
      "ip": 965,
      "Ġunt": 966,
      "Ġgreat": 967,
      "Ġstrong": 968,
      "Ġapp": 969,
      "Ġboat": 970,
      "Ġhat": 971,
      "les": 972,
      "oy": 973,
      "Ġhappily": 974,
      "Ġbro": 975,
      "ool": 976,
      "Ġjumped": 977,
      "Ġuntil": 978,
      "Ġca": 979,
      "Ġtown": 980,
      "Ġfrog": 981,
      "dy": 982,
      "ĠSally": 983,
      "Ġkid": 984,
      "Ġhelped": 985,
      "Ġforest": 986,
      "ies": 987,
      "Ġsto": 988,
      "ct": 989,
      "orn": 990,
      "Ġdoll": 991,
      "aut": 992,
      "Ġsqu": 993,
      "ary": 994,
      "ĠKitty": 995,
      "Ġbeaut": 996,
      "Ġlisten": 997,
      "Ġshowed": 998,
      "Ġmet": 999
    },
    "merges": [
      [
        "h",
        "e"
      ],
      [
        "Ġ",
        "t"
      ],
      [
        "Ġ",
        "a"
      ],
      [
        "Ġ",
        "s"
      ],
      [
        "n",
        "d"
      ],
      [
        "Ġ",
        "w"
      ],
      [
        "Ġt",
        "he"
      ],
      [
        "e",
        "d"
      ],
      [
        "Ġ",
        "b"
      ],
      [
        "Ġt",
        "o"
      ],
      [
        "Ġa",
        "nd"
      ],
      [
        "Ġ",
        "h"
      ],
      [
        "Ġ",
        "f"
      ],
      [
        "i",
        "n"
      ],
      [
        "Ġw",
        "a"
      ],
      [
        "Ġ",
        "T"
      ],
      [
        "i",
        "t"
      ],
      [
        "r",
        "e"
      ],
      [
        "o",
        "u"
      ],
      [
        "Ġ",
        "l"
      ],
      [
        "Ġ",
        "d"
      ],
      [
        "Ġ",
        "c"
      ],
      [
        "Ġ",
        "p"
      ],
      [
        "a",
        "y"
      ],
      [
        "Ġwa",
        "s"
      ],
      [
        "e",
        "r"
      ],
      [
        "Ġ",
        "m"
      ],
      [
        "o",
        "m"
      ],
      [
        "Ġ",
        "he"
      ],
      [
        "ĠT",
        "he"
      ],
      [
        "i",
        "s"
      ],
      [
        "Ġ",
        "n"
      ],
      [
        "o",
        "n"
      ],
      [
        "a",
        "r"
      ],
      [
        "i",
        "m"
      ],
      [
        "Ġs",
        "a"
      ],
      [
        "l",
        "l"
      ],
      [
        "i",
        "d"
      ],
      [
        "Ġh",
        "a"
      ],
      [
        "Ġ",
        "g"
      ],
      [
        "Ġ",
        "S"
      ],
      [
        "a",
        "t"
      ],
      [
        "in",
        "g"
      ],
      [
        "o",
        "t"
      ],
      [
        "e",
        "n"
      ],
      [
        "a",
        "n"
      ],
      [
        "l",
        "e"
      ],
      [
        "o",
        "r"
      ],
      [
        "e",
        "nd"
      ],
      [
        "i",
        "r"
      ],
      [
        "o",
        "f"
      ],
      [
        "Ġ",
        "H"
      ],
      [
        "a",
        "m"
      ],
      [
        "e",
        "t"
      ],
      [
        "Ġ",
        "it"
      ],
      [
        "Ġt",
        "h"
      ],
      [
        "i",
        "g"
      ],
      [
        "ĠThe",
        "y"
      ],
      [
        "i",
        "l"
      ],
      [
        "Ġ",
        "in"
      ],
      [
        "ĠH",
        "e"
      ],
      [
        "Ġp",
        "l"
      ],
      [
        "Ġ",
        "\""
      ],
      [
        "o",
        "w"
      ],
      [
        "v",
        "er"
      ],
      [
        "r",
        "i"
      ],
      [
        "Ġ",
        "u"
      ],
      [
        "u",
        "t"
      ],
      [
        "Ġd",
        "ay"
      ],
      [
        "Ġsa",
        "id"
      ],
      [
        "it",
        "h"
      ],
      [
        "p",
        "p"
      ],
      [
        "Ġpl",
        "ay"
      ],
      [
        "O",
        "n"
      ],
      [
        "Ġb",
        "e"
      ],
      [
        "Ġw",
        "ith"
      ],
      [
        "Ġ",
        "y"
      ],
      [
        "Ġhe",
        "r"
      ],
      [
        "Ġ",
        "r"
      ],
      [
        "k",
        "ed"
      ],
      [
        "o",
        "o"
      ],
      [
        "e",
        "x"
      ],
      [
        "c",
        "e"
      ],
      [
        "Ġh",
        "is"
      ],
      [
        "ĠS",
        "he"
      ],
      [
        "Ġ",
        "I"
      ],
      [
        "l",
        "d"
      ],
      [
        "Ġs",
        "t"
      ],
      [
        "ĠT",
        "im"
      ],
      [
        "k",
        "e"
      ],
      [
        "n",
        "t"
      ],
      [
        "c",
        "k"
      ],
      [
        "Ġb",
        "ig"
      ],
      [
        "ver",
        "y"
      ],
      [
        "Ġy",
        "ou"
      ],
      [
        "v",
        "e"
      ],
      [
        "s",
        "t"
      ],
      [
        "Ġha",
        "pp"
      ],
      [
        "Ġ",
        "on"
      ],
      [
        "u",
        "n"
      ],
      [
        "a",
        "ll"
      ],
      [
        "il",
        "y"
      ],
      [
        "ex",
        "t"
      ],
      [
        "ri",
        "end"
      ],
      [
        "Ġf",
        "riend"
      ],
      [
        "Ġ",
        "L"
      ],
      [
        "of",
        "t"
      ],
      [
        "Ġu",
        "p"
      ],
      [
        "Ġthe",
        "y"
      ],
      [
        "Ġwa",
        "nt"
      ],
      [
        "Ġw",
        "e"
      ],
      [
        "Ġha",
        "d"
      ],
      [
        "Ġn",
        "ot"
      ],
      [
        "he",
        "r"
      ],
      [
        "Ġl",
        "i"
      ],
      [
        "it",
        "t"
      ],
      [
        "Ġd",
        "o"
      ],
      [
        "<",
        "|"
      ],
      [
        "|",
        ">"
      ],
      [
        "end",
        "oft"
      ],
      [
        "endoft",
        "ext"
      ],
      [
        "Ġ",
        "of"
      ],
      [
        "Ġ",
        "B"
      ],
      [
        "a",
        "d"
      ],
      [
        "e",
        "s"
      ],
      [
        "Ġ",
        "e"
      ],
      [
        "Ġhapp",
        "y"
      ],
      [
        "Ġ",
        "M"
      ],
      [
        "en",
        "t"
      ],
      [
        "Ġ",
        "very"
      ],
      [
        "Ġth",
        "at"
      ],
      [
        "On",
        "e"
      ],
      [
        "Ġsa",
        "w"
      ],
      [
        "Ġm",
        "om"
      ],
      [
        "ou",
        "ld"
      ],
      [
        "'",
        "s"
      ],
      [
        "s",
        "e"
      ],
      [
        "Ġf",
        "or"
      ],
      [
        "itt",
        "le"
      ],
      [
        "Ġl",
        "ittle"
      ],
      [
        "Ġs",
        "he"
      ],
      [
        "Ġs",
        "h"
      ],
      [
        "im",
        "e"
      ],
      [
        "Ġ",
        "k"
      ],
      [
        "Ġt",
        "ime"
      ],
      [
        "Ġn",
        "am"
      ],
      [
        "c",
        "h"
      ],
      [
        "Ġs",
        "o"
      ],
      [
        "Ġthe",
        "re"
      ],
      [
        ".",
        "\""
      ],
      [
        "ou",
        "nd"
      ],
      [
        "Ġb",
        "o"
      ],
      [
        "Ġnam",
        "ed"
      ],
      [
        "ĠL",
        "ily"
      ],
      [
        "ir",
        "d"
      ],
      [
        "Ġs",
        "m"
      ],
      [
        "Ġwant",
        "ed"
      ],
      [
        "Ġb",
        "ird"
      ],
      [
        "ĠT",
        "om"
      ],
      [
        "Ġn",
        "e"
      ],
      [
        "v",
        "ed"
      ],
      [
        "Ġwe",
        "re"
      ],
      [
        "Ġb",
        "ut"
      ],
      [
        "T",
        "he"
      ],
      [
        "Ġfriend",
        "s"
      ],
      [
        "!",
        "\""
      ],
      [
        "ou",
        "t"
      ],
      [
        "h",
        "t"
      ],
      [
        "e",
        "l"
      ],
      [
        "a",
        "ke"
      ],
      [
        "a",
        "l"
      ],
      [
        "Ġa",
        "n"
      ],
      [
        "Ġto",
        "o"
      ],
      [
        "id",
        "e"
      ],
      [
        "Ġhe",
        "l"
      ],
      [
        "On",
        "ce"
      ],
      [
        "Ġw",
        "h"
      ],
      [
        "Ġhel",
        "p"
      ],
      [
        "u",
        "g"
      ],
      [
        "Ġw",
        "ent"
      ],
      [
        "om",
        "e"
      ],
      [
        "Ġa",
        "ll"
      ],
      [
        "ĠI",
        "t"
      ],
      [
        "Ġ",
        "A"
      ],
      [
        "Ġl",
        "oo"
      ],
      [
        "Ġ",
        "is"
      ],
      [
        "Ġup",
        "on"
      ],
      [
        "Ġl",
        "o"
      ],
      [
        "u",
        "e"
      ],
      [
        "t",
        "er"
      ],
      [
        "r",
        "y"
      ],
      [
        "o",
        "re"
      ],
      [
        "i",
        "nd"
      ],
      [
        "g",
        "et"
      ],
      [
        "Ġf",
        "un"
      ],
      [
        "Ġto",
        "y"
      ],
      [
        "i",
        "ll"
      ],
      [
        "Ġ",
        "o"
      ],
      [
        "a",
        "ck"
      ],
      [
        "get",
        "her"
      ],
      [
        "Ġa",
        "t"
      ],
      [
        "Ġ",
        "j"
      ],
      [
        "Ġa",
        "s"
      ],
      [
        "Ġd",
        "id"
      ],
      [
        "am",
        "e"
      ],
      [
        "Ġ",
        "re"
      ],
      [
        "Ġto",
        "gether"
      ],
      [
        "u",
        "r"
      ],
      [
        "Ġc",
        "at"
      ],
      [
        "r",
        "a"
      ],
      [
        "Ġdo",
        "g"
      ],
      [
        "Ġs",
        "e"
      ],
      [
        "l",
        "y"
      ],
      [
        "Ġt",
        "re"
      ],
      [
        "oo",
        "d"
      ],
      [
        "Ġg",
        "ir"
      ],
      [
        "Ġc",
        "an"
      ],
      [
        "i",
        "c"
      ],
      [
        "Ġb",
        "all"
      ],
      [
        "m",
        "y"
      ],
      [
        "Ġgir",
        "l"
      ],
      [
        "Ġc",
        "ould"
      ],
      [
        "ar",
        "d"
      ],
      [
        "t",
        "ed"
      ],
      [
        "Ġr",
        "o"
      ],
      [
        "Ġh",
        "im"
      ],
      [
        "Ġthe",
        "ir"
      ],
      [
        "e",
        "c"
      ],
      [
        "ar",
        "k"
      ],
      [
        "w",
        "ay"
      ],
      [
        "Ġk",
        "n"
      ],
      [
        "Ġplay",
        "ed"
      ],
      [
        "?",
        "\""
      ],
      [
        "he",
        "d"
      ],
      [
        "Ġf",
        "r"
      ],
      [
        "a",
        "in"
      ],
      [
        "he",
        "n"
      ],
      [
        "Ġl",
        "e"
      ],
      [
        "Ġ",
        "out"
      ],
      [
        "u",
        "m"
      ],
      [
        "'",
        "t"
      ],
      [
        "Ġg",
        "o"
      ],
      [
        "a",
        "x"
      ],
      [
        "Ġthe",
        "m"
      ],
      [
        "Ġa",
        "re"
      ],
      [
        "Ġbo",
        "y"
      ],
      [
        "Ġsa",
        "d"
      ],
      [
        "u",
        "l"
      ],
      [
        "ou",
        "g"
      ],
      [
        "Ġha",
        "ve"
      ],
      [
        "Ġtre",
        "e"
      ],
      [
        "Ġc",
        "l"
      ],
      [
        "Ġlo",
        "ved"
      ],
      [
        "ot",
        "her"
      ],
      [
        "Ġb",
        "ack"
      ],
      [
        "Ġloo",
        "ked"
      ],
      [
        "Ġs",
        "p"
      ],
      [
        "Ġf",
        "ound"
      ],
      [
        "ow",
        "n"
      ],
      [
        "on",
        "e"
      ],
      [
        "ĠM",
        "ax"
      ],
      [
        "Ġm",
        "e"
      ],
      [
        "Ġs",
        "c"
      ],
      [
        "Ġm",
        "an"
      ],
      [
        "a",
        "re"
      ],
      [
        "Ġst",
        "ar"
      ],
      [
        "ĠS",
        "ue"
      ],
      [
        "h",
        "ing"
      ],
      [
        "s",
        "ide"
      ],
      [
        "Ġp",
        "ark"
      ],
      [
        "on",
        "g"
      ],
      [
        "o",
        "p"
      ],
      [
        "f",
        "ul"
      ],
      [
        "Ġbe",
        "c"
      ],
      [
        "Ġli",
        "ke"
      ],
      [
        "Ġw",
        "ould"
      ],
      [
        "Ġli",
        "ked"
      ],
      [
        "el",
        "t"
      ],
      [
        "r",
        "ound"
      ],
      [
        "Ġ",
        "One"
      ],
      [
        "Ġf",
        "elt"
      ],
      [
        "ig",
        "ht"
      ],
      [
        "Ġf",
        "a"
      ],
      [
        "ĠB",
        "en"
      ],
      [
        "Ġl",
        "a"
      ],
      [
        "Ġ",
        "W"
      ],
      [
        "e",
        "ll"
      ],
      [
        "Ġm",
        "ake"
      ],
      [
        "ĠB",
        "ut"
      ],
      [
        "Y",
        "ou"
      ],
      [
        "Ġas",
        "ked"
      ],
      [
        "Ġne",
        "w"
      ],
      [
        "i",
        "ce"
      ],
      [
        "il",
        "ed"
      ],
      [
        "s",
        "s"
      ],
      [
        "ar",
        "ed"
      ],
      [
        "a",
        "g"
      ],
      [
        "ĠS",
        "am"
      ],
      [
        "oug",
        "ht"
      ],
      [
        "Ġse",
        "e"
      ],
      [
        "om",
        "et"
      ],
      [
        "Ġa",
        "l"
      ],
      [
        "Ġstar",
        "ted"
      ],
      [
        "Ġa",
        "g"
      ],
      [
        "Ġc",
        "ame"
      ],
      [
        "Ġ",
        "Ċ"
      ],
      [
        "Ġn",
        "o"
      ],
      [
        "Ġsm",
        "iled"
      ],
      [
        "Ġc",
        "ar"
      ],
      [
        "Ġ",
        "other"
      ],
      [
        "ri",
        "ed"
      ],
      [
        "Ġs",
        "omet"
      ],
      [
        "Ġg",
        "ood"
      ],
      [
        "Ġs",
        "ay"
      ],
      [
        "Ġb",
        "r"
      ],
      [
        "Ġsm",
        "all"
      ],
      [
        "ad",
        "e"
      ],
      [
        "p",
        "ot"
      ],
      [
        "o",
        "b"
      ],
      [
        "ing",
        "s"
      ],
      [
        "Ġw",
        "or"
      ],
      [
        "Ġa",
        "way"
      ],
      [
        "a",
        "b"
      ],
      [
        "ou",
        "se"
      ],
      [
        "Ġf",
        "ind"
      ],
      [
        "u",
        "s"
      ],
      [
        "Ġfr",
        "om"
      ],
      [
        "Ġp",
        "ut"
      ],
      [
        "Ġ",
        "ex"
      ],
      [
        "t",
        "y"
      ],
      [
        "Ġth",
        "ought"
      ],
      [
        "Ġm",
        "ade"
      ],
      [
        "Ġwh",
        "at"
      ],
      [
        "en",
        "ed"
      ],
      [
        "Ġplay",
        "ing"
      ],
      [
        "i",
        "e"
      ],
      [
        "Ġh",
        "ome"
      ],
      [
        "k",
        "ing"
      ],
      [
        "Ġwa",
        "l"
      ],
      [
        "a",
        "ch"
      ],
      [
        "Ġsomet",
        "hing"
      ],
      [
        "i",
        "a"
      ],
      [
        "i",
        "le"
      ],
      [
        "Ġe",
        "very"
      ],
      [
        "Ġr",
        "an"
      ],
      [
        "ĠS",
        "pot"
      ],
      [
        "Ġag",
        "ain"
      ],
      [
        "Ġ",
        "F"
      ],
      [
        "a",
        "ve"
      ],
      [
        "u",
        "c"
      ],
      [
        "ar",
        "n"
      ],
      [
        "Ġbo",
        "x"
      ],
      [
        "Ġd",
        "own"
      ],
      [
        "d",
        "d"
      ],
      [
        "Ġtoy",
        "s"
      ],
      [
        "oo",
        "k"
      ],
      [
        "Ġ",
        "J"
      ],
      [
        "Ġp",
        "r"
      ],
      [
        "Ġc",
        "o"
      ],
      [
        "Ġtoo",
        "k"
      ],
      [
        "Ġs",
        "w"
      ],
      [
        "Ġs",
        "ome"
      ],
      [
        "i",
        "f"
      ],
      [
        "Ġla",
        "ug"
      ],
      [
        "ou",
        "d"
      ],
      [
        "e",
        "w"
      ],
      [
        "u",
        "st"
      ],
      [
        "Ġs",
        "un"
      ],
      [
        "Ġa",
        "round"
      ],
      [
        "n",
        "y"
      ],
      [
        "Ġsc",
        "ared"
      ],
      [
        "Ġli",
        "ved"
      ],
      [
        "Ġle",
        "arn"
      ],
      [
        "Ġw",
        "ill"
      ],
      [
        "Ġm",
        "y"
      ],
      [
        "Ġf",
        "l"
      ],
      [
        "u",
        "re"
      ],
      [
        "Ġyou",
        "r"
      ],
      [
        "i",
        "ck"
      ],
      [
        "re",
        "t"
      ],
      [
        "e",
        "p"
      ],
      [
        "Ġh",
        "ouse"
      ],
      [
        "Ġw",
        "hen"
      ],
      [
        "Ġ",
        "You"
      ],
      [
        "Ġth",
        "ings"
      ],
      [
        "Ġb",
        "l"
      ],
      [
        ",",
        "\""
      ],
      [
        "an",
        "k"
      ],
      [
        "u",
        "ck"
      ],
      [
        "Ġthe",
        "n"
      ],
      [
        "pp",
        "ed"
      ],
      [
        "ĠM",
        "ia"
      ],
      [
        "is",
        "t"
      ],
      [
        "T",
        "h"
      ],
      [
        "Ġb",
        "ot"
      ],
      [
        "Ġa",
        "b"
      ],
      [
        "is",
        "h"
      ],
      [
        "Ġg",
        "et"
      ],
      [
        "Ġwh",
        "o"
      ],
      [
        "Ġkn",
        "ow"
      ],
      [
        "uc",
        "y"
      ],
      [
        "Ġf",
        "e"
      ],
      [
        "a",
        "s"
      ],
      [
        "Ġt",
        "ried"
      ],
      [
        "Ġg",
        "ot"
      ],
      [
        "Ġkn",
        "ew"
      ],
      [
        "it",
        "ed"
      ],
      [
        "Ġl",
        "ot"
      ],
      [
        "u",
        "ch"
      ],
      [
        "Ġsay",
        "s"
      ],
      [
        "a",
        "p"
      ],
      [
        "all",
        "y"
      ],
      [
        "Ġc",
        "h"
      ],
      [
        "Ġin",
        "t"
      ],
      [
        "i",
        "ve"
      ],
      [
        "Ġr",
        "ed"
      ],
      [
        "T",
        "im"
      ],
      [
        "nd",
        "er"
      ],
      [
        "um",
        "p"
      ],
      [
        "L",
        "ily"
      ],
      [
        "Ġp",
        "ret"
      ],
      [
        "ou",
        "s"
      ],
      [
        "Ġab",
        "out"
      ],
      [
        "Ġc",
        "are"
      ],
      [
        "Ġd",
        "ec"
      ],
      [
        "f",
        "ter"
      ],
      [
        "Ġo",
        "p"
      ],
      [
        "f",
        "e"
      ],
      [
        "Ġ",
        "D"
      ],
      [
        "Ġloo",
        "k"
      ],
      [
        "Ġman",
        "y"
      ],
      [
        "u",
        "se"
      ],
      [
        "Ġu",
        "n"
      ],
      [
        "Ġm",
        "ore"
      ],
      [
        "is",
        "e"
      ],
      [
        "ĠS",
        "o"
      ],
      [
        "way",
        "s"
      ],
      [
        "Ġ",
        "E"
      ],
      [
        "n",
        "n"
      ],
      [
        "ĠM",
        "om"
      ],
      [
        "Ġex",
        "c"
      ],
      [
        "Ġal",
        "ways"
      ],
      [
        "Ġp",
        "o"
      ],
      [
        "Ġp",
        "ic"
      ],
      [
        "â",
        "Ģ"
      ],
      [
        "Ġbe",
        "st"
      ],
      [
        "q",
        "u"
      ],
      [
        "Ġan",
        "y"
      ],
      [
        "Ġsh",
        "ow"
      ],
      [
        "Ġbot",
        "h"
      ],
      [
        "ĠL",
        "ucy"
      ],
      [
        "Ġh",
        "ug"
      ],
      [
        "it",
        "e"
      ],
      [
        "Ġro",
        "om"
      ],
      [
        "a",
        "ce"
      ],
      [
        "er",
        "s"
      ],
      [
        "a",
        "use"
      ],
      [
        "Ġint",
        "o"
      ],
      [
        "Ġwa",
        "ter"
      ],
      [
        "Ġbec",
        "ame"
      ],
      [
        "Ġout",
        "side"
      ],
      [
        "Ġlearn",
        "ed"
      ],
      [
        "Ġlaug",
        "hed"
      ],
      [
        "u",
        "dd"
      ],
      [
        "Ġd",
        "ad"
      ],
      [
        "id",
        "ed"
      ],
      [
        "an",
        "t"
      ],
      [
        "Ġ",
        "v"
      ],
      [
        "Ġbec",
        "ause"
      ],
      [
        "Ġon",
        "e"
      ],
      [
        "Ġg",
        "re"
      ],
      [
        "Ġp",
        "e"
      ],
      [
        "Ġdec",
        "ided"
      ],
      [
        "ĠA",
        "nd"
      ],
      [
        "p",
        "r"
      ],
      [
        "Ġexc",
        "ited"
      ],
      [
        "Y",
        "es"
      ],
      [
        "Ġh",
        "o"
      ],
      [
        "Ġn",
        "ice"
      ],
      [
        "nn",
        "a"
      ],
      [
        "Ġ",
        "ke"
      ],
      [
        "Ġe",
        "at"
      ],
      [
        "Ġs",
        "or"
      ],
      [
        "Ġth",
        "is"
      ],
      [
        "ar",
        "a"
      ],
      [
        "Ġj",
        "ump"
      ],
      [
        "Ġl",
        "ong"
      ],
      [
        "Ġfe",
        "el"
      ],
      [
        "The",
        "y"
      ],
      [
        "ĠB",
        "ob"
      ],
      [
        "T",
        "om"
      ],
      [
        "Ġm",
        "o"
      ],
      [
        "Ġto",
        "ld"
      ],
      [
        "Ġr",
        "un"
      ],
      [
        "u",
        "ll"
      ],
      [
        "Ġs",
        "ur"
      ],
      [
        "in",
        "k"
      ],
      [
        "Ġro",
        "ck"
      ],
      [
        "Ġin",
        "side"
      ],
      [
        "Ġpret",
        "ty"
      ],
      [
        "Ġs",
        "l"
      ],
      [
        "Ġs",
        "k"
      ],
      [
        "le",
        "w"
      ],
      [
        "in",
        "y"
      ],
      [
        "Ġt",
        "ake"
      ],
      [
        "Ġa",
        "m"
      ],
      [
        "Ġg",
        "ave"
      ],
      [
        "Ġsur",
        "pr"
      ],
      [
        "Ġe",
        "ach"
      ],
      [
        "Ġfa",
        "st"
      ],
      [
        "Ġto",
        "w"
      ],
      [
        "ou",
        "r"
      ],
      [
        "es",
        "s"
      ],
      [
        "r",
        "o"
      ],
      [
        "v",
        "en"
      ],
      [
        "g",
        "ed"
      ],
      [
        "Ġsor",
        "ry"
      ],
      [
        "Ġ",
        "or"
      ],
      [
        "Ġne",
        "ed"
      ],
      [
        "Ġm",
        "uch"
      ],
      [
        "Ġth",
        "an"
      ],
      [
        "Ġh",
        "ow"
      ],
      [
        "ur",
        "t"
      ],
      [
        "is",
        "ed"
      ],
      [
        "Ġst",
        "r"
      ],
      [
        "ab",
        "le"
      ],
      [
        "Ġu",
        "nder"
      ],
      [
        "W",
        "h"
      ],
      [
        "o",
        "g"
      ],
      [
        "g",
        "e"
      ],
      [
        "Ġk",
        "ind"
      ],
      [
        "a",
        "nd"
      ],
      [
        "Ġg",
        "ra"
      ],
      [
        "ĠA",
        "my"
      ],
      [
        "im",
        "al"
      ],
      [
        "v",
        "ing"
      ],
      [
        "Ġan",
        "imal"
      ],
      [
        "Ġt",
        "a"
      ],
      [
        "B",
        "ut"
      ],
      [
        "Ġf",
        "ood"
      ],
      [
        "C",
        "an"
      ],
      [
        "et",
        "ter"
      ],
      [
        "Ġwal",
        "ked"
      ],
      [
        "ĠW",
        "e"
      ],
      [
        "Ġt",
        "r"
      ],
      [
        "Ġwa",
        "t"
      ],
      [
        "Ġha",
        "nd"
      ],
      [
        "Ġo",
        "ld"
      ],
      [
        "ĠH",
        "is"
      ],
      [
        "Ġl",
        "ist"
      ],
      [
        "Ġh",
        "ig"
      ],
      [
        "f",
        "f"
      ],
      [
        "Ġj",
        "ust"
      ],
      [
        "Ġcl",
        "o"
      ],
      [
        "Ġfl",
        "ow"
      ],
      [
        "Ġ",
        "en"
      ],
      [
        "r",
        "om"
      ],
      [
        "Ġc",
        "le"
      ],
      [
        "c",
        "hed"
      ],
      [
        "Ġdid",
        "n"
      ],
      [
        "ur",
        "n"
      ],
      [
        "Ġ",
        "ide"
      ],
      [
        "ec",
        "i"
      ],
      [
        "M",
        "om"
      ],
      [
        "a",
        "se"
      ],
      [
        "Ġt",
        "ry"
      ],
      [
        "Ġide",
        "a"
      ],
      [
        "Ġd",
        "an"
      ],
      [
        "i",
        "on"
      ],
      [
        "he",
        "re"
      ],
      [
        "Ġsk",
        "y"
      ],
      [
        "Ġit",
        "s"
      ],
      [
        "Ġsp",
        "eci"
      ],
      [
        "Ġspeci",
        "al"
      ],
      [
        "Ġne",
        "ar"
      ],
      [
        "Ġf",
        "lew"
      ],
      [
        "Ġu",
        "s"
      ],
      [
        "ĠA",
        "nna"
      ],
      [
        "Ġt",
        "w"
      ],
      [
        "Ġhapp",
        "ened"
      ],
      [
        "p",
        "l"
      ],
      [
        "g",
        "ry"
      ],
      [
        "Ġf",
        "o"
      ],
      [
        "Ġf",
        "i"
      ],
      [
        "in",
        "e"
      ],
      [
        "Ġs",
        "n"
      ],
      [
        "ĠT",
        "h"
      ],
      [
        "Ġ",
        "if"
      ],
      [
        "Th",
        "ank"
      ],
      [
        "Ġc",
        "ake"
      ],
      [
        "b",
        "er"
      ],
      [
        "Ġf",
        "ish"
      ],
      [
        "Ġanimal",
        "s"
      ],
      [
        "Ġst",
        "or"
      ],
      [
        "Ġo",
        "ver"
      ],
      [
        "Ġb",
        "ug"
      ],
      [
        "l",
        "f"
      ],
      [
        "Ġhe",
        "ard"
      ],
      [
        "at",
        "e"
      ],
      [
        "Ġcare",
        "ful"
      ],
      [
        "Ġc",
        "om"
      ],
      [
        "r",
        "m"
      ],
      [
        "udd",
        "en"
      ],
      [
        "Ġb",
        "etter"
      ],
      [
        "Ġlot",
        "s"
      ],
      [
        "Ġb",
        "y"
      ],
      [
        "Ġl",
        "et"
      ],
      [
        "Ġh",
        "ard"
      ],
      [
        "Ġw",
        "ind"
      ],
      [
        "Ġne",
        "ver"
      ],
      [
        "Ġh",
        "urt"
      ],
      [
        "Ġbe",
        "ar"
      ],
      [
        "Ġsh",
        "are"
      ],
      [
        "op",
        "le"
      ],
      [
        "ĠE",
        "very"
      ],
      [
        "Ġd",
        "re"
      ],
      [
        "udden",
        "ly"
      ],
      [
        "m",
        "ore"
      ],
      [
        "Ġany",
        "more"
      ],
      [
        "Ġe",
        "ven"
      ],
      [
        "Ġt",
        "e"
      ],
      [
        "or",
        "t"
      ],
      [
        "Ġt",
        "al"
      ],
      [
        "p",
        "ec"
      ],
      [
        "Ġf",
        "ly"
      ],
      [
        "ĠS",
        "ara"
      ],
      [
        "Ġsa",
        "fe"
      ],
      [
        "Ġlo",
        "ve"
      ],
      [
        "ad",
        "y"
      ],
      [
        "Ġb",
        "u"
      ],
      [
        "Ġ",
        "end"
      ],
      [
        "Ġd",
        "on"
      ],
      [
        "Ġ",
        "K"
      ],
      [
        "Ġf",
        "ore"
      ],
      [
        "Ġg",
        "ive"
      ],
      [
        "Ġpe",
        "ople"
      ],
      [
        "Ġa",
        "fter"
      ],
      [
        "Ġcle",
        "an"
      ],
      [
        "u",
        "ff"
      ],
      [
        "Ġpr",
        "oud"
      ],
      [
        "Ġop",
        "ened"
      ],
      [
        "'",
        "m"
      ],
      [
        "b",
        "ed"
      ],
      [
        "Ġf",
        "am"
      ],
      [
        "Ġg",
        "r"
      ],
      [
        "Ġhig",
        "h"
      ],
      [
        "Ġb",
        "ad"
      ],
      [
        "Ġdo",
        "or"
      ],
      [
        "Ġsurpr",
        "ised"
      ],
      [
        "ĠThe",
        "n"
      ],
      [
        "a",
        "k"
      ],
      [
        "Ġt",
        "urn"
      ],
      [
        "itt",
        "y"
      ],
      [
        "A",
        "s"
      ],
      [
        "Ġg",
        "l"
      ],
      [
        "ag",
        "e"
      ],
      [
        "ĠF",
        "rom"
      ],
      [
        "um",
        "my"
      ],
      [
        "oug",
        "h"
      ],
      [
        "Ġg",
        "round"
      ],
      [
        "Ġcl",
        "im"
      ],
      [
        "ĠH",
        "er"
      ],
      [
        "Ġthan",
        "ked"
      ],
      [
        "Ġ",
        "im"
      ],
      [
        "ĠW",
        "hen"
      ],
      [
        "i",
        "z"
      ],
      [
        "Ġbl",
        "ue"
      ],
      [
        "Ġb",
        "ook"
      ],
      [
        "Ġc",
        "all"
      ],
      [
        "k",
        "ay"
      ],
      [
        "Ġg",
        "ard"
      ],
      [
        "Ġgard",
        "en"
      ],
      [
        "Ġf",
        "ar"
      ],
      [
        "il",
        "d"
      ],
      [
        "Ġm",
        "a"
      ],
      [
        "Ġe",
        "ver"
      ],
      [
        "Ġwa",
        "y"
      ],
      [
        "Ġc",
        "he"
      ],
      [
        "Ġhug",
        "ged"
      ],
      [
        "pec",
        "ted"
      ],
      [
        "Ġsh",
        "iny"
      ],
      [
        "Ġco",
        "l"
      ],
      [
        "Ġpic",
        "ked"
      ],
      [
        "L",
        "et"
      ],
      [
        "Ġsm",
        "ile"
      ],
      [
        "Ġl",
        "oud"
      ],
      [
        "Ġm",
        "ag"
      ],
      [
        "Ġc",
        "u"
      ],
      [
        "Ġof",
        "f"
      ],
      [
        "Ġc",
        "ome"
      ],
      [
        "ĠI",
        "n"
      ],
      [
        "Ġsh",
        "ould"
      ],
      [
        "ex",
        "pected"
      ],
      [
        "Ġun",
        "expected"
      ],
      [
        "Ġn",
        "ext"
      ],
      [
        "Ġst",
        "ick"
      ],
      [
        "Ġpl",
        "ace"
      ],
      [
        "Ġwal",
        "k"
      ],
      [
        "Ġ",
        "N"
      ],
      [
        "Ġfam",
        "ily"
      ],
      [
        "e",
        "m"
      ],
      [
        "he",
        "s"
      ],
      [
        "Ġ",
        "qu"
      ],
      [
        "Ġcol",
        "or"
      ],
      [
        "b",
        "y"
      ],
      [
        "Ġ",
        "P"
      ],
      [
        "Ġst",
        "ill"
      ],
      [
        "t",
        "ure"
      ],
      [
        "i",
        "p"
      ],
      [
        "Ġu",
        "nt"
      ],
      [
        "Ġgre",
        "at"
      ],
      [
        "Ġstr",
        "ong"
      ],
      [
        "Ġa",
        "pp"
      ],
      [
        "Ġbo",
        "at"
      ],
      [
        "Ġha",
        "t"
      ],
      [
        "le",
        "s"
      ],
      [
        "o",
        "y"
      ],
      [
        "Ġhapp",
        "ily"
      ],
      [
        "Ġbr",
        "o"
      ],
      [
        "oo",
        "l"
      ],
      [
        "Ġjump",
        "ed"
      ],
      [
        "Ġunt",
        "il"
      ],
      [
        "Ġc",
        "a"
      ],
      [
        "Ġtow",
        "n"
      ],
      [
        "Ġfr",
        "og"
      ],
      [
        "d",
        "y"
      ],
      [
        "ĠS",
        "ally"
      ],
      [
        "Ġk",
        "id"
      ],
      [
        "Ġhelp",
        "ed"
      ],
      [
        "Ġfore",
        "st"
      ],
      [
        "i",
        "es"
      ],
      [
        "Ġst",
        "o"
      ],
      [
        "c",
        "t"
      ],
      [
        "or",
        "n"
      ],
      [
        "Ġdo",
        "ll"
      ],
      [
        "a",
        "ut"
      ],
      [
        "Ġs",
        "qu"
      ],
      [
        "ar",
        "y"
      ],
      [
        "ĠK",
        "itty"
      ],
      [
        "Ġbe",
        "aut"
      ],
      [
        "Ġlist",
        "en"
      ],
      [
        "Ġshow",
        "ed"
      ],
      [
        "Ġm",
        "et"
      ]
    ]
  }
}